#ifndef SALARY_MODEL_ESP32_H
#define SALARY_MODEL_ESP32_H

/*
 Author: Mouli Sankaran 
 CAUTION: This is an auto generated file.
 DO NOT EDIT OR MAKE ANY CHANGES TO IT.
 This model data was generated on Sat Nov  2 01:18:10 2024

 Tools used:
 Python:3.7.16 (default, Jan 17 2023, 22:20:44) 
[GCC 11.2.0]
 Numpy:1.21.5
 TensorFlow:3.7.16 (default, Jan 17 2023, 22:20:44) 
[GCC 11.2.0]
 Keras: 2.10.0

 Model details are:
 NUM_OF_EPOCHS = 7
 BATCH_SIZE    = 32
*/

const int DENSE1_SIZE = 8;
const int DENSE2_SIZE = 8;

const unsigned int salary_model_esp32_len = 3760;
alignas(8) const unsigned char salary_model_esp32[] = {
0x20,0x00,0x00,0x00,0x54,0x46,0x4c,0x33,0x00,0x00,0x00,0x00,
0x14,0x00,0x20,0x00,0x1c,0x00,0x18,0x00,0x14,0x00,0x10,0x00,
0x0c,0x00,0x00,0x00,0x08,0x00,0x04,0x00,0x14,0x00,0x00,0x00,
0x1c,0x00,0x00,0x00,0x88,0x00,0x00,0x00,0xe0,0x00,0x00,0x00,
0x90,0x05,0x00,0x00,0xa0,0x05,0x00,0x00,0x10,0x0e,0x00,0x00,
0x03,0x00,0x00,0x00,0x01,0x00,0x00,0x00,0x04,0x00,0x00,0x00,
0x1a,0xfa,0xff,0xff,0x0c,0x00,0x00,0x00,0x1c,0x00,0x00,0x00,
0x38,0x00,0x00,0x00,0x0f,0x00,0x00,0x00,0x73,0x65,0x72,0x76,
0x69,0x6e,0x67,0x5f,0x64,0x65,0x66,0x61,0x75,0x6c,0x74,0x00,
0x01,0x00,0x00,0x00,0x04,0x00,0x00,0x00,0x94,0xff,0xff,0xff,
0x0c,0x00,0x00,0x00,0x04,0x00,0x00,0x00,0x07,0x00,0x00,0x00,
0x64,0x65,0x6e,0x73,0x65,0x5f,0x35,0x00,0x01,0x00,0x00,0x00,
0x04,0x00,0x00,0x00,0x22,0xfa,0xff,0xff,0x04,0x00,0x00,0x00,
0x0d,0x00,0x00,0x00,0x64,0x65,0x6e,0x73,0x65,0x5f,0x33,0x5f,
0x69,0x6e,0x70,0x75,0x74,0x00,0x00,0x00,0x02,0x00,0x00,0x00,
0x34,0x00,0x00,0x00,0x04,0x00,0x00,0x00,0xdc,0xff,0xff,0xff,
0x0f,0x00,0x00,0x00,0x04,0x00,0x00,0x00,0x13,0x00,0x00,0x00,
0x43,0x4f,0x4e,0x56,0x45,0x52,0x53,0x49,0x4f,0x4e,0x5f,0x4d,
0x45,0x54,0x41,0x44,0x41,0x54,0x41,0x00,0x08,0x00,0x0c,0x00,
0x08,0x00,0x04,0x00,0x08,0x00,0x00,0x00,0x0e,0x00,0x00,0x00,
0x04,0x00,0x00,0x00,0x13,0x00,0x00,0x00,0x6d,0x69,0x6e,0x5f,
0x72,0x75,0x6e,0x74,0x69,0x6d,0x65,0x5f,0x76,0x65,0x72,0x73,
0x69,0x6f,0x6e,0x00,0x10,0x00,0x00,0x00,0xac,0x04,0x00,0x00,
0xa4,0x04,0x00,0x00,0x8c,0x04,0x00,0x00,0x6c,0x04,0x00,0x00,
0x3c,0x04,0x00,0x00,0xec,0x03,0x00,0x00,0xbc,0x03,0x00,0x00,
0xbc,0x00,0x00,0x00,0xb4,0x00,0x00,0x00,0xac,0x00,0x00,0x00,
0xa4,0x00,0x00,0x00,0x9c,0x00,0x00,0x00,0x94,0x00,0x00,0x00,
0x8c,0x00,0x00,0x00,0x6c,0x00,0x00,0x00,0x04,0x00,0x00,0x00,
0xde,0xfa,0xff,0xff,0x04,0x00,0x00,0x00,0x58,0x00,0x00,0x00,
0x0c,0x00,0x00,0x00,0x08,0x00,0x0e,0x00,0x08,0x00,0x04,0x00,
0x08,0x00,0x00,0x00,0x10,0x00,0x00,0x00,0x28,0x00,0x00,0x00,
0x00,0x00,0x06,0x00,0x08,0x00,0x04,0x00,0x06,0x00,0x00,0x00,
0x04,0x00,0x00,0x00,0x01,0x00,0x00,0x00,0xeb,0x03,0x00,0x00,
0x00,0x00,0x0a,0x00,0x10,0x00,0x0c,0x00,0x08,0x00,0x04,0x00,
0x0a,0x00,0x00,0x00,0x01,0x00,0x00,0x00,0x02,0x00,0x00,0x00,
0x04,0x00,0x00,0x00,0x06,0x00,0x00,0x00,0x32,0x2e,0x31,0x30,
0x2e,0x30,0x00,0x00,0x42,0xfb,0xff,0xff,0x04,0x00,0x00,0x00,
0x10,0x00,0x00,0x00,0x31,0x2e,0x31,0x34,0x2e,0x30,0x00,0x00,
0x00,0x00,0x00,0x00,0x00,0x00,0x00,0x00,0xc0,0xf3,0xff,0xff,
0xc4,0xf3,0xff,0xff,0xc8,0xf3,0xff,0xff,0xcc,0xf3,0xff,0xff,
0xd0,0xf3,0xff,0xff,0xd4,0xf3,0xff,0xff,0x76,0xfb,0xff,0xff,
0x04,0x00,0x00,0x00,0xf0,0x02,0x00,0x00,0x08,0x1a,0x1f,0x0c,
0xfd,0xcb,0x1d,0xf4,0x2b,0x2e,0x12,0x49,0x39,0x5e,0x2d,0x1a,
0x23,0x0e,0xf3,0x28,0x03,0x6a,0xf1,0x21,0xdd,0x0d,0x2f,0x26,
0x14,0xce,0x16,0xfa,0x19,0x14,0x08,0x08,0xfd,0x12,0x2f,0x1f,
0x45,0x1e,0x4b,0xfe,0x05,0xff,0x23,0x1e,0xee,0x08,0x22,0xf8,
0x4a,0x45,0x30,0x1e,0xff,0x17,0x08,0x18,0xfa,0xf8,0x0d,0x14,
0x42,0x34,0xe7,0x32,0x09,0x05,0x24,0x27,0x08,0xfa,0x61,0x23,
0x13,0xfd,0x04,0x13,0x03,0xf7,0x10,0x15,0x08,0x20,0x1b,0x04,
0xd7,0xed,0x04,0xff,0x81,0xc9,0xde,0xfb,0x4f,0xe7,0xea,0xfb,
0x05,0x15,0x2b,0x27,0x13,0x57,0x2b,0x44,0x39,0x00,0xef,0xeb,
0xc3,0x0c,0xe4,0x5f,0xc3,0x02,0xf9,0x1c,0x18,0x38,0x28,0xd7,
0x04,0x19,0x0c,0xe8,0x13,0x30,0x1f,0xf5,0xf3,0x19,0x49,0x23,
0x62,0xfd,0x30,0xf6,0x02,0x18,0x12,0x0a,0xfd,0xe0,0x55,0x12,
0x18,0xfe,0xf2,0xcb,0xfe,0x04,0x0d,0x23,0x34,0xee,0x02,0x15,
0xf2,0xf9,0xf0,0x08,0x67,0x40,0x23,0x2e,0x5c,0x0b,0x1d,0xf2,
0x01,0x09,0x02,0xfa,0x23,0x1e,0x0a,0x13,0x43,0x00,0xed,0xfe,
0xf3,0x0d,0xd4,0xab,0x02,0x16,0x00,0x0a,0xf4,0x1f,0x0d,0xf2,
0x37,0x23,0x24,0x5f,0x56,0x30,0xf0,0xff,0x08,0xf9,0xba,0x01,
0xec,0x33,0xd0,0x0f,0xe3,0x29,0x36,0x5d,0x22,0xb5,0xde,0xea,
0xe3,0xd3,0xe7,0x2a,0x10,0xfa,0x04,0x2c,0x04,0x12,0x29,0x1b,
0x22,0xe2,0xfa,0xf0,0xe0,0xf2,0x00,0x20,0x2e,0x24,0xed,0xe3,
0x05,0xdb,0xe2,0x1a,0xe3,0x04,0x28,0x1b,0xf5,0x3e,0x17,0x2f,
0x2d,0x15,0x70,0x37,0xf6,0x5d,0x5c,0x1c,0x1a,0x07,0x10,0x0d,
0xfd,0xd7,0x22,0x33,0x11,0x3f,0x36,0xeb,0xf0,0xd8,0xf3,0xf2,
0xee,0xd1,0xf1,0xd7,0x10,0x03,0xfb,0x24,0xfa,0xfc,0x29,0x39,
0x18,0x77,0x48,0xe2,0x3e,0x0f,0x1d,0xed,0xc3,0x1b,0xdf,0x20,
0xc2,0x04,0xf8,0x40,0x38,0x61,0x35,0xdf,0x27,0x04,0x03,0x0b,
0xfc,0x0e,0x02,0xf4,0x0d,0x01,0xff,0x02,0x4f,0x1d,0xfd,0x0f,
0xe2,0x21,0x1a,0xe5,0x2a,0x04,0x2a,0x32,0x1d,0xe8,0x10,0x04,
0x02,0xfd,0x1e,0x1f,0x09,0xf9,0x22,0x42,0x2d,0x10,0xf8,0xf5,
0x00,0x3c,0x3e,0x12,0x3d,0x24,0x37,0x15,0xf3,0x1f,0xf4,0xda,
0x03,0xf1,0xf3,0x0d,0x19,0xd6,0x08,0xef,0xe3,0xf8,0xf1,0xc0,
0x2a,0xf2,0xf6,0x0c,0x1a,0xe1,0xf6,0xd2,0xb9,0xac,0xe3,0xaf,
0xd9,0xb7,0xb6,0xfd,0xfa,0x1e,0x58,0xd3,0x34,0xe3,0x71,0xef,
0x26,0xc5,0xe6,0xc5,0xd8,0x36,0xfa,0xdd,0xfa,0xf0,0x03,0xc8,
0xcf,0xd6,0x0c,0xf4,0xe8,0xfe,0xd7,0xe0,0xf5,0xea,0x35,0xff,
0xe4,0x08,0x0d,0x04,0x1c,0x35,0x05,0x07,0x1b,0x1f,0x10,0x10,
0xfa,0xfc,0xbd,0xdf,0x01,0xf2,0x31,0xf8,0xfd,0xf8,0xe0,0xe8,
0x21,0x0c,0xe7,0xef,0xbf,0x0e,0xfb,0x28,0xd7,0x35,0xc1,0xc7,
0xd3,0xb9,0xec,0x15,0xfa,0x15,0x1b,0xd3,0x37,0x52,0x0c,0xce,
0x23,0x07,0x07,0xf5,0x1b,0xfb,0x37,0x24,0xda,0x42,0x3b,0xf5,
0x1d,0x19,0xdd,0xfc,0xdc,0x14,0xf3,0x64,0xdd,0x0d,0xda,0x2e,
0x28,0x30,0x26,0x0a,0xc7,0xed,0x22,0xf4,0x1e,0x06,0x12,0x17,
0xdf,0x26,0xee,0xf9,0x24,0x18,0xfb,0x20,0xea,0xf3,0xf5,0x07,
0xff,0x2a,0xf4,0x32,0x20,0x1b,0x0b,0xde,0xf5,0x12,0x10,0xdd,
0x13,0x35,0x1c,0x18,0x17,0xfc,0xe5,0x2c,0x43,0xd0,0xde,0x02,
0x1d,0xf5,0xed,0xf9,0xe8,0x10,0xe9,0xde,0xed,0x1e,0x23,0xf7,
0xfc,0xe4,0x29,0x04,0x12,0xfa,0x9d,0x04,0xf4,0x0b,0x50,0xfa,
0xd5,0xd0,0x0a,0xbe,0x3b,0x10,0x3d,0x37,0x07,0x4c,0x53,0x08,
0x16,0xed,0xcb,0x20,0xe5,0x39,0xf7,0x18,0x0e,0x21,0x35,0x3f,
0x30,0xcb,0x08,0xf1,0x03,0x00,0x01,0x1d,0xe8,0xda,0x07,0xf8,
0x73,0x10,0x50,0x10,0x04,0xed,0x0f,0xfe,0xe9,0x24,0x1d,0x0c,
0x2a,0x0e,0xe8,0x10,0x0f,0x0d,0x1a,0xfe,0xfc,0x41,0x2b,0x3a,
0x2b,0x30,0xf9,0x13,0x1f,0x27,0x0b,0x20,0x31,0x1e,0x2b,0x03,
0x34,0x1a,0x13,0x06,0x14,0x06,0x2b,0x1b,0x16,0x21,0x48,0xfe,
0xe8,0x14,0xee,0x15,0x87,0xdb,0xf8,0x00,0x0e,0x20,0xdf,0x19,
0xfb,0x18,0x22,0x3b,0x32,0x1a,0x4f,0x47,0x24,0xfc,0xf7,0xe3,
0x00,0x07,0xf6,0x4b,0xff,0xd9,0x0c,0xeb,0x33,0x51,0x06,0x01,
0x11,0xe8,0xf6,0x1f,0xec,0xfd,0xeb,0xe8,0xe0,0xf6,0x28,0x14,
0x1b,0x15,0x24,0x11,0xff,0xf8,0x22,0x3e,0xfb,0xec,0x15,0x1d,
0x1a,0x2a,0xfd,0xd4,0x01,0x27,0xea,0x63,0x1e,0x2b,0xdd,0xfb,
0x0d,0x11,0xf7,0x12,0x43,0xe3,0x07,0x21,0x43,0xf0,0x35,0xd3,
0x12,0xd7,0x19,0xf7,0x4e,0x0c,0x22,0x4c,0x1f,0xc0,0x22,0x0f,
0xfb,0x0e,0xef,0xf2,0x72,0xfe,0xff,0xff,0x04,0x00,0x00,0x00,
0x20,0x00,0x00,0x00,0xc1,0x00,0x00,0x00,0xf2,0x0e,0x00,0x00,
0x60,0x03,0x00,0x00,0x27,0x06,0x00,0x00,0x19,0xe5,0xff,0xff,
0xd7,0xfe,0xff,0xff,0x7a,0x1b,0x00,0x00,0x74,0x04,0x00,0x00,
0x9e,0xfe,0xff,0xff,0x04,0x00,0x00,0x00,0x40,0x00,0x00,0x00,
0x46,0x23,0x2b,0x1c,0xfc,0x02,0x2e,0x1a,0xff,0xa2,0xe3,0x0b,
0x7f,0xae,0xfa,0xda,0x3d,0x13,0x29,0xe3,0xfc,0x2d,0x1c,0x1b,
0x90,0xaf,0x9c,0xc2,0x27,0xba,0xb0,0xe9,0x1d,0x1e,0xe9,0x2f,
0xf5,0x24,0x34,0xd3,0x88,0xa5,0xcf,0xca,0x35,0xba,0x9d,0xe1,
0x24,0x5a,0x21,0x3d,0xfd,0x37,0x28,0x20,0x2f,0x34,0x39,0x15,
0xe8,0x12,0x3e,0x25,0xea,0xfe,0xff,0xff,0x04,0x00,0x00,0x00,
0x20,0x00,0x00,0x00,0x4a,0x00,0x00,0x00,0xc1,0xf9,0xff,0xff,
0x41,0xff,0xff,0xff,0xbf,0x10,0x00,0x00,0x49,0x00,0x00,0x00,
0xd6,0x11,0x00,0x00,0xf0,0xff,0xff,0xff,0xbe,0xff,0xff,0xff,
0x16,0xff,0xff,0xff,0x04,0x00,0x00,0x00,0x10,0x00,0x00,0x00,
0x29,0xcb,0x44,0x81,0x53,0xc6,0x00,0x40,0xbf,0x10,0xb4,0xfa,
0xbe,0x2a,0xb2,0xea,0x32,0xff,0xff,0xff,0x04,0x00,0x00,0x00,
0x08,0x00,0x00,0x00,0x10,0x06,0x00,0x00,0xf0,0xf9,0xff,0xff,
0xa8,0xf7,0xff,0xff,0xac,0xf7,0xff,0xff,0x0f,0x00,0x00,0x00,
0x4d,0x4c,0x49,0x52,0x20,0x43,0x6f,0x6e,0x76,0x65,0x72,0x74,
0x65,0x64,0x2e,0x00,0x01,0x00,0x00,0x00,0x14,0x00,0x00,0x00,
0x00,0x00,0x0e,0x00,0x18,0x00,0x14,0x00,0x10,0x00,0x0c,0x00,
0x08,0x00,0x04,0x00,0x0e,0x00,0x00,0x00,0x14,0x00,0x00,0x00,
0x1c,0x00,0x00,0x00,0x7c,0x01,0x00,0x00,0x80,0x01,0x00,0x00,
0x84,0x01,0x00,0x00,0x04,0x00,0x00,0x00,0x6d,0x61,0x69,0x6e,
0x00,0x00,0x00,0x00,0x06,0x00,0x00,0x00,0x44,0x01,0x00,0x00,
0xf4,0x00,0x00,0x00,0xa8,0x00,0x00,0x00,0x70,0x00,0x00,0x00,
0x34,0x00,0x00,0x00,0x10,0x00,0x00,0x00,0x00,0x00,0x0a,0x00,
0x10,0x00,0x0c,0x00,0x08,0x00,0x04,0x00,0x0a,0x00,0x00,0x00,
0x0c,0x00,0x00,0x00,0x10,0x00,0x00,0x00,0x03,0x00,0x00,0x00,
0x01,0x00,0x00,0x00,0x0c,0x00,0x00,0x00,0x01,0x00,0x00,0x00,
0x0b,0x00,0x00,0x00,0x5a,0xff,0xff,0xff,0x1c,0x00,0x00,0x00,
0x00,0x00,0x00,0x09,0x1c,0x00,0x00,0x00,0x20,0x00,0x00,0x00,
0x02,0x00,0x00,0x00,0x00,0x00,0x06,0x00,0x08,0x00,0x04,0x00,
0x06,0x00,0x00,0x00,0x00,0x00,0x80,0x3f,0x01,0x00,0x00,0x00,
0x0b,0x00,0x00,0x00,0x01,0x00,0x00,0x00,0x0a,0x00,0x00,0x00,
0x92,0xff,0xff,0xff,0x14,0x00,0x00,0x00,0x00,0x00,0x00,0x08,
0x10,0x00,0x00,0x00,0x14,0x00,0x00,0x00,0x01,0x00,0x00,0x00,
0x98,0xf8,0xff,0xff,0x01,0x00,0x00,0x00,0x0a,0x00,0x00,0x00,
0x03,0x00,0x00,0x00,0x09,0x00,0x00,0x00,0x02,0x00,0x00,0x00,
0x01,0x00,0x00,0x00,0xc6,0xff,0xff,0xff,0x14,0x00,0x00,0x00,
0x00,0x00,0x00,0x08,0x14,0x00,0x00,0x00,0x18,0x00,0x00,0x00,
0x01,0x00,0x00,0x00,0xb6,0xff,0xff,0xff,0x00,0x00,0x00,0x01,
0x01,0x00,0x00,0x00,0x09,0x00,0x00,0x00,0x03,0x00,0x00,0x00,
0x08,0x00,0x00,0x00,0x04,0x00,0x00,0x00,0x03,0x00,0x00,0x00,
0x00,0x00,0x0e,0x00,0x1a,0x00,0x14,0x00,0x10,0x00,0x0c,0x00,
0x0b,0x00,0x04,0x00,0x0e,0x00,0x00,0x00,0x1c,0x00,0x00,0x00,
0x00,0x00,0x00,0x08,0x1c,0x00,0x00,0x00,0x20,0x00,0x00,0x00,
0x01,0x00,0x00,0x00,0x00,0x00,0x06,0x00,0x08,0x00,0x07,0x00,
0x06,0x00,0x00,0x00,0x00,0x00,0x00,0x01,0x01,0x00,0x00,0x00,
0x08,0x00,0x00,0x00,0x03,0x00,0x00,0x00,0x07,0x00,0x00,0x00,
0x06,0x00,0x00,0x00,0x05,0x00,0x00,0x00,0x00,0x00,0x0a,0x00,
0x0c,0x00,0x00,0x00,0x08,0x00,0x04,0x00,0x0a,0x00,0x00,0x00,
0x08,0x00,0x00,0x00,0x0c,0x00,0x00,0x00,0x01,0x00,0x00,0x00,
0x07,0x00,0x00,0x00,0x01,0x00,0x00,0x00,0x00,0x00,0x00,0x00,
0x01,0x00,0x00,0x00,0x0c,0x00,0x00,0x00,0x01,0x00,0x00,0x00,
0x00,0x00,0x00,0x00,0x0d,0x00,0x00,0x00,0x60,0x06,0x00,0x00,
0xc4,0x05,0x00,0x00,0x3c,0x05,0x00,0x00,0xc0,0x04,0x00,0x00,
0x54,0x04,0x00,0x00,0xd8,0x03,0x00,0x00,0x6c,0x03,0x00,0x00,
0xf8,0x02,0x00,0x00,0x2c,0x02,0x00,0x00,0x78,0x01,0x00,0x00,
0xdc,0x00,0x00,0x00,0x60,0x00,0x00,0x00,0x04,0x00,0x00,0x00,
0xea,0xf9,0xff,0xff,0x00,0x00,0x00,0x01,0x14,0x00,0x00,0x00,
0x1c,0x00,0x00,0x00,0x1c,0x00,0x00,0x00,0x0d,0x00,0x00,0x00,
0x34,0x00,0x00,0x00,0x02,0x00,0x00,0x00,0xff,0xff,0xff,0xff,
0x02,0x00,0x00,0x00,0xd4,0xf9,0xff,0xff,0x19,0x00,0x00,0x00,
0x53,0x74,0x61,0x74,0x65,0x66,0x75,0x6c,0x50,0x61,0x72,0x74,
0x69,0x74,0x69,0x6f,0x6e,0x65,0x64,0x43,0x61,0x6c,0x6c,0x3a,
0x30,0x00,0x00,0x00,0x02,0x00,0x00,0x00,0x01,0x00,0x00,0x00,
0x02,0x00,0x00,0x00,0x8e,0xfd,0xff,0xff,0x00,0x00,0x00,0x01,
0x18,0x00,0x00,0x00,0x20,0x00,0x00,0x00,0x3c,0x00,0x00,0x00,
0x0c,0x00,0x00,0x00,0x00,0x00,0x00,0x09,0x50,0x00,0x00,0x00,
0x02,0x00,0x00,0x00,0xff,0xff,0xff,0xff,0x02,0x00,0x00,0x00,
0xd4,0xfa,0xff,0xff,0x08,0x00,0x00,0x00,0x10,0x00,0x00,0x00,
0x01,0x00,0x00,0x00,0x80,0xff,0xff,0xff,0xff,0xff,0xff,0xff,
0x01,0x00,0x00,0x00,0x00,0x00,0x80,0x3b,0x1a,0x00,0x00,0x00,
0x53,0x74,0x61,0x74,0x65,0x66,0x75,0x6c,0x50,0x61,0x72,0x74,
0x69,0x74,0x69,0x6f,0x6e,0x65,0x64,0x43,0x61,0x6c,0x6c,0x3a,
0x30,0x31,0x00,0x00,0x02,0x00,0x00,0x00,0x01,0x00,0x00,0x00,
0x02,0x00,0x00,0x00,0x06,0xfe,0xff,0xff,0x00,0x00,0x00,0x01,
0x18,0x00,0x00,0x00,0x20,0x00,0x00,0x00,0x3c,0x00,0x00,0x00,
0x0b,0x00,0x00,0x00,0x00,0x00,0x00,0x09,0x70,0x00,0x00,0x00,
0x02,0x00,0x00,0x00,0xff,0xff,0xff,0xff,0x02,0x00,0x00,0x00,
0x4c,0xfb,0xff,0xff,0x08,0x00,0x00,0x00,0x10,0x00,0x00,0x00,
0x01,0x00,0x00,0x00,0x13,0x00,0x00,0x00,0x00,0x00,0x00,0x00,
0x01,0x00,0x00,0x00,0x45,0xed,0x39,0x3d,0x38,0x00,0x00,0x00,
0x73,0x65,0x71,0x75,0x65,0x6e,0x74,0x69,0x61,0x6c,0x5f,0x31,
0x2f,0x64,0x65,0x6e,0x73,0x65,0x5f,0x35,0x2f,0x4d,0x61,0x74,
0x4d,0x75,0x6c,0x3b,0x73,0x65,0x71,0x75,0x65,0x6e,0x74,0x69,
0x61,0x6c,0x5f,0x31,0x2f,0x64,0x65,0x6e,0x73,0x65,0x5f,0x35,
0x2f,0x42,0x69,0x61,0x73,0x41,0x64,0x64,0x00,0x00,0x00,0x00,
0x02,0x00,0x00,0x00,0x01,0x00,0x00,0x00,0x02,0x00,0x00,0x00,
0x9e,0xfe,0xff,0xff,0x00,0x00,0x00,0x01,0x18,0x00,0x00,0x00,
0x20,0x00,0x00,0x00,0x3c,0x00,0x00,0x00,0x0a,0x00,0x00,0x00,
0x00,0x00,0x00,0x09,0x88,0x00,0x00,0x00,0x02,0x00,0x00,0x00,
0xff,0xff,0xff,0xff,0x08,0x00,0x00,0x00,0xe4,0xfb,0xff,0xff,
0x08,0x00,0x00,0x00,0x10,0x00,0x00,0x00,0x01,0x00,0x00,0x00,
0x80,0xff,0xff,0xff,0xff,0xff,0xff,0xff,0x01,0x00,0x00,0x00,
0x87,0xd8,0x58,0x3c,0x52,0x00,0x00,0x00,0x73,0x65,0x71,0x75,
0x65,0x6e,0x74,0x69,0x61,0x6c,0x5f,0x31,0x2f,0x64,0x65,0x6e,
0x73,0x65,0x5f,0x34,0x2f,0x4d,0x61,0x74,0x4d,0x75,0x6c,0x3b,
0x73,0x65,0x71,0x75,0x65,0x6e,0x74,0x69,0x61,0x6c,0x5f,0x31,
0x2f,0x64,0x65,0x6e,0x73,0x65,0x5f,0x34,0x2f,0x52,0x65,0x6c,
0x75,0x3b,0x73,0x65,0x71,0x75,0x65,0x6e,0x74,0x69,0x61,0x6c,
0x5f,0x31,0x2f,0x64,0x65,0x6e,0x73,0x65,0x5f,0x34,0x2f,0x42,
0x69,0x61,0x73,0x41,0x64,0x64,0x00,0x00,0x02,0x00,0x00,0x00,
0x01,0x00,0x00,0x00,0x08,0x00,0x00,0x00,0x4e,0xff,0xff,0xff,
0x00,0x00,0x00,0x01,0x18,0x00,0x00,0x00,0x20,0x00,0x00,0x00,
0x3c,0x00,0x00,0x00,0x09,0x00,0x00,0x00,0x00,0x00,0x00,0x09,
0x88,0x00,0x00,0x00,0x02,0x00,0x00,0x00,0xff,0xff,0xff,0xff,
0x08,0x00,0x00,0x00,0x94,0xfc,0xff,0xff,0x08,0x00,0x00,0x00,
0x10,0x00,0x00,0x00,0x01,0x00,0x00,0x00,0x80,0xff,0xff,0xff,
0xff,0xff,0xff,0xff,0x01,0x00,0x00,0x00,0x08,0xc7,0xc1,0x3b,
0x52,0x00,0x00,0x00,0x73,0x65,0x71,0x75,0x65,0x6e,0x74,0x69,
0x61,0x6c,0x5f,0x31,0x2f,0x64,0x65,0x6e,0x73,0x65,0x5f,0x33,
0x2f,0x4d,0x61,0x74,0x4d,0x75,0x6c,0x3b,0x73,0x65,0x71,0x75,
0x65,0x6e,0x74,0x69,0x61,0x6c,0x5f,0x31,0x2f,0x64,0x65,0x6e,
0x73,0x65,0x5f,0x33,0x2f,0x52,0x65,0x6c,0x75,0x3b,0x73,0x65,
0x71,0x75,0x65,0x6e,0x74,0x69,0x61,0x6c,0x5f,0x31,0x2f,0x64,
0x65,0x6e,0x73,0x65,0x5f,0x33,0x2f,0x42,0x69,0x61,0x73,0x41,
0x64,0x64,0x00,0x00,0x02,0x00,0x00,0x00,0x01,0x00,0x00,0x00,
0x08,0x00,0x00,0x00,0x00,0x00,0x16,0x00,0x20,0x00,0x1c,0x00,
0x1b,0x00,0x14,0x00,0x10,0x00,0x0c,0x00,0x00,0x00,0x00,0x00,
0x08,0x00,0x07,0x00,0x16,0x00,0x00,0x00,0x00,0x00,0x00,0x01,
0x18,0x00,0x00,0x00,0x20,0x00,0x00,0x00,0x40,0x00,0x00,0x00,
0x08,0x00,0x00,0x00,0x00,0x00,0x00,0x09,0x48,0x00,0x00,0x00,
0x02,0x00,0x00,0x00,0xff,0xff,0xff,0xff,0x5e,0x00,0x00,0x00,
0x5c,0xfd,0xff,0xff,0x08,0x00,0x00,0x00,0x14,0x00,0x00,0x00,
0x01,0x00,0x00,0x00,0x80,0xff,0xff,0xff,0xff,0xff,0xff,0xff,
0x00,0x00,0x00,0x00,0x01,0x00,0x00,0x00,0x81,0x80,0x80,0x3b,
0x0c,0x00,0x00,0x00,0x74,0x66,0x6c,0x2e,0x71,0x75,0x61,0x6e,
0x74,0x69,0x7a,0x65,0x00,0x00,0x00,0x00,0x02,0x00,0x00,0x00,
0x01,0x00,0x00,0x00,0x5e,0x00,0x00,0x00,0xd2,0xfd,0xff,0xff,
0x00,0x00,0x00,0x01,0x14,0x00,0x00,0x00,0x30,0x00,0x00,0x00,
0x07,0x00,0x00,0x00,0x00,0x00,0x00,0x09,0x44,0x00,0x00,0x00,
0xbc,0xfd,0xff,0xff,0x08,0x00,0x00,0x00,0x10,0x00,0x00,0x00,
0x01,0x00,0x00,0x00,0x00,0x00,0x00,0x00,0x00,0x00,0x00,0x00,
0x01,0x00,0x00,0x00,0x58,0xe9,0xb4,0x3b,0x1b,0x00,0x00,0x00,
0x73,0x65,0x71,0x75,0x65,0x6e,0x74,0x69,0x61,0x6c,0x5f,0x31,
0x2f,0x64,0x65,0x6e,0x73,0x65,0x5f,0x33,0x2f,0x4d,0x61,0x74,
0x4d,0x75,0x6c,0x00,0x02,0x00,0x00,0x00,0x08,0x00,0x00,0x00,
0x5e,0x00,0x00,0x00,0x3a,0xfe,0xff,0xff,0x00,0x00,0x00,0x01,
0x14,0x00,0x00,0x00,0x34,0x00,0x00,0x00,0x06,0x00,0x00,0x00,
0x00,0x00,0x00,0x02,0x58,0x00,0x00,0x00,0x24,0xfe,0xff,0xff,
0x08,0x00,0x00,0x00,0x14,0x00,0x00,0x00,0x01,0x00,0x00,0x00,
0x00,0x00,0x00,0x00,0x00,0x00,0x00,0x00,0x00,0x00,0x00,0x00,
0x01,0x00,0x00,0x00,0xf8,0x9e,0xb5,0x37,0x2b,0x00,0x00,0x00,
0x73,0x65,0x71,0x75,0x65,0x6e,0x74,0x69,0x61,0x6c,0x5f,0x31,
0x2f,0x64,0x65,0x6e,0x73,0x65,0x5f,0x33,0x2f,0x42,0x69,0x61,
0x73,0x41,0x64,0x64,0x2f,0x52,0x65,0x61,0x64,0x56,0x61,0x72,
0x69,0x61,0x62,0x6c,0x65,0x4f,0x70,0x00,0x01,0x00,0x00,0x00,
0x08,0x00,0x00,0x00,0xb2,0xfe,0xff,0xff,0x00,0x00,0x00,0x01,
0x14,0x00,0x00,0x00,0x30,0x00,0x00,0x00,0x05,0x00,0x00,0x00,
0x00,0x00,0x00,0x09,0x44,0x00,0x00,0x00,0x9c,0xfe,0xff,0xff,
0x08,0x00,0x00,0x00,0x10,0x00,0x00,0x00,0x01,0x00,0x00,0x00,
0x00,0x00,0x00,0x00,0x00,0x00,0x00,0x00,0x01,0x00,0x00,0x00,
0x45,0x0b,0x0c,0x3c,0x1b,0x00,0x00,0x00,0x73,0x65,0x71,0x75,
0x65,0x6e,0x74,0x69,0x61,0x6c,0x5f,0x31,0x2f,0x64,0x65,0x6e,
0x73,0x65,0x5f,0x34,0x2f,0x4d,0x61,0x74,0x4d,0x75,0x6c,0x00,
0x02,0x00,0x00,0x00,0x08,0x00,0x00,0x00,0x08,0x00,0x00,0x00,
0x1a,0xff,0xff,0xff,0x00,0x00,0x00,0x01,0x14,0x00,0x00,0x00,
0x34,0x00,0x00,0x00,0x04,0x00,0x00,0x00,0x00,0x00,0x00,0x02,
0x58,0x00,0x00,0x00,0x04,0xff,0xff,0xff,0x08,0x00,0x00,0x00,
0x14,0x00,0x00,0x00,0x01,0x00,0x00,0x00,0x00,0x00,0x00,0x00,
0x00,0x00,0x00,0x00,0x00,0x00,0x00,0x00,0x01,0x00,0x00,0x00,
0xc0,0x02,0x54,0x38,0x2b,0x00,0x00,0x00,0x73,0x65,0x71,0x75,
0x65,0x6e,0x74,0x69,0x61,0x6c,0x5f,0x31,0x2f,0x64,0x65,0x6e,
0x73,0x65,0x5f,0x34,0x2f,0x42,0x69,0x61,0x73,0x41,0x64,0x64,
0x2f,0x52,0x65,0x61,0x64,0x56,0x61,0x72,0x69,0x61,0x62,0x6c,
0x65,0x4f,0x70,0x00,0x01,0x00,0x00,0x00,0x08,0x00,0x00,0x00,
0x92,0xff,0xff,0xff,0x00,0x00,0x00,0x01,0x14,0x00,0x00,0x00,
0x34,0x00,0x00,0x00,0x03,0x00,0x00,0x00,0x00,0x00,0x00,0x09,
0x48,0x00,0x00,0x00,0x7c,0xff,0xff,0xff,0x08,0x00,0x00,0x00,
0x14,0x00,0x00,0x00,0x01,0x00,0x00,0x00,0x00,0x00,0x00,0x00,
0x00,0x00,0x00,0x00,0x00,0x00,0x00,0x00,0x01,0x00,0x00,0x00,
0x8e,0xac,0x18,0x3c,0x1b,0x00,0x00,0x00,0x73,0x65,0x71,0x75,
0x65,0x6e,0x74,0x69,0x61,0x6c,0x5f,0x31,0x2f,0x64,0x65,0x6e,
0x73,0x65,0x5f,0x35,0x2f,0x4d,0x61,0x74,0x4d,0x75,0x6c,0x00,
0x02,0x00,0x00,0x00,0x02,0x00,0x00,0x00,0x08,0x00,0x00,0x00,
0x00,0x00,0x16,0x00,0x1c,0x00,0x18,0x00,0x17,0x00,0x10,0x00,
0x0c,0x00,0x08,0x00,0x00,0x00,0x00,0x00,0x00,0x00,0x07,0x00,
0x16,0x00,0x00,0x00,0x00,0x00,0x00,0x01,0x20,0x00,0x00,0x00,
0x3c,0x00,0x00,0x00,0x02,0x00,0x00,0x00,0x00,0x00,0x00,0x02,
0x60,0x00,0x00,0x00,0x0c,0x00,0x0c,0x00,0x00,0x00,0x00,0x00,
0x08,0x00,0x04,0x00,0x0c,0x00,0x00,0x00,0x08,0x00,0x00,0x00,
0x10,0x00,0x00,0x00,0x01,0x00,0x00,0x00,0x00,0x00,0x00,0x00,
0x00,0x00,0x00,0x00,0x01,0x00,0x00,0x00,0xba,0x52,0x01,0x39,
0x2b,0x00,0x00,0x00,0x73,0x65,0x71,0x75,0x65,0x6e,0x74,0x69,
0x61,0x6c,0x5f,0x31,0x2f,0x64,0x65,0x6e,0x73,0x65,0x5f,0x35,
0x2f,0x42,0x69,0x61,0x73,0x41,0x64,0x64,0x2f,0x52,0x65,0x61,
0x64,0x56,0x61,0x72,0x69,0x61,0x62,0x6c,0x65,0x4f,0x70,0x00,
0x01,0x00,0x00,0x00,0x02,0x00,0x00,0x00,0x00,0x00,0x16,0x00,
0x1c,0x00,0x18,0x00,0x00,0x00,0x14,0x00,0x10,0x00,0x0c,0x00,
0x00,0x00,0x00,0x00,0x08,0x00,0x07,0x00,0x16,0x00,0x00,0x00,
0x00,0x00,0x00,0x01,0x14,0x00,0x00,0x00,0x20,0x00,0x00,0x00,
0x20,0x00,0x00,0x00,0x01,0x00,0x00,0x00,0x3c,0x00,0x00,0x00,
0x02,0x00,0x00,0x00,0xff,0xff,0xff,0xff,0x5e,0x00,0x00,0x00,
0x04,0x00,0x04,0x00,0x04,0x00,0x00,0x00,0x1f,0x00,0x00,0x00,
0x73,0x65,0x72,0x76,0x69,0x6e,0x67,0x5f,0x64,0x65,0x66,0x61,
0x75,0x6c,0x74,0x5f,0x64,0x65,0x6e,0x73,0x65,0x5f,0x33,0x5f,
0x69,0x6e,0x70,0x75,0x74,0x3a,0x30,0x00,0x02,0x00,0x00,0x00,
0x01,0x00,0x00,0x00,0x5e,0x00,0x00,0x00,0x04,0x00,0x00,0x00,
0x58,0x00,0x00,0x00,0x38,0x00,0x00,0x00,0x18,0x00,0x00,0x00,
0x04,0x00,0x00,0x00,0xe0,0xff,0xff,0xff,0x06,0x00,0x00,0x00,
0x02,0x00,0x00,0x00,0x00,0x00,0x00,0x06,0xf0,0xff,0xff,0xff,
0x19,0x00,0x00,0x00,0x02,0x00,0x00,0x00,0x00,0x00,0x00,0x19,
0x0c,0x00,0x10,0x00,0x0f,0x00,0x00,0x00,0x08,0x00,0x04,0x00,
0x0c,0x00,0x00,0x00,0x09,0x00,0x00,0x00,0x04,0x00,0x00,0x00,
0x00,0x00,0x00,0x09,0x0c,0x00,0x0c,0x00,0x0b,0x00,0x00,0x00,
0x00,0x00,0x04,0x00,0x0c,0x00,0x00,0x00,0x72,0x00,0x00,0x00,
0x00,0x00,0x00,0x72
};

#endif //SALARY_MODEL_ESP32_H