#ifndef SALARY_MODEL_ESP32_H
#define SALARY_MODEL_ESP32_H

/*
 Author: Mouli Sankaran 
 CAUTION: This is an auto generated file.
 DO NOT EDIT OR MAKE ANY CHANGES TO IT.
 This model data was generated on Sat Nov  2 00:43:41 2024

 Tools used:
 Python:3.7.16 (default, Jan 17 2023, 22:20:44) 
[GCC 11.2.0]
 Numpy:1.21.5
 TensorFlow:3.7.16 (default, Jan 17 2023, 22:20:44) 
[GCC 11.2.0]
 Keras: 2.10.0

 Model details are:
 NUM_OF_EPOCHS = 7
 BATCH_SIZE    = 32
*/

const int DENSE1_SIZE = 8;
const int DENSE2_SIZE = 8;

const unsigned int salary_model_esp32_len = 3744;
alignas(8) const unsigned char salary_model_esp32[] = {
0x1c,0x00,0x00,0x00,0x54,0x46,0x4c,0x33,0x14,0x00,0x20,0x00,
0x1c,0x00,0x18,0x00,0x14,0x00,0x10,0x00,0x0c,0x00,0x00,0x00,
0x08,0x00,0x04,0x00,0x14,0x00,0x00,0x00,0x1c,0x00,0x00,0x00,
0x84,0x00,0x00,0x00,0xdc,0x00,0x00,0x00,0x94,0x05,0x00,0x00,
0xa4,0x05,0x00,0x00,0x04,0x0e,0x00,0x00,0x03,0x00,0x00,0x00,
0x01,0x00,0x00,0x00,0x04,0x00,0x00,0x00,0x16,0xfa,0xff,0xff,
0x0c,0x00,0x00,0x00,0x1c,0x00,0x00,0x00,0x38,0x00,0x00,0x00,
0x0f,0x00,0x00,0x00,0x73,0x65,0x72,0x76,0x69,0x6e,0x67,0x5f,
0x64,0x65,0x66,0x61,0x75,0x6c,0x74,0x00,0x01,0x00,0x00,0x00,
0x04,0x00,0x00,0x00,0x98,0xff,0xff,0xff,0x0c,0x00,0x00,0x00,
0x04,0x00,0x00,0x00,0x07,0x00,0x00,0x00,0x64,0x65,0x6e,0x73,
0x65,0x5f,0x32,0x00,0x01,0x00,0x00,0x00,0x04,0x00,0x00,0x00,
0x1e,0xfa,0xff,0xff,0x04,0x00,0x00,0x00,0x0b,0x00,0x00,0x00,
0x64,0x65,0x6e,0x73,0x65,0x5f,0x69,0x6e,0x70,0x75,0x74,0x00,
0x02,0x00,0x00,0x00,0x34,0x00,0x00,0x00,0x04,0x00,0x00,0x00,
0xdc,0xff,0xff,0xff,0x0f,0x00,0x00,0x00,0x04,0x00,0x00,0x00,
0x13,0x00,0x00,0x00,0x43,0x4f,0x4e,0x56,0x45,0x52,0x53,0x49,
0x4f,0x4e,0x5f,0x4d,0x45,0x54,0x41,0x44,0x41,0x54,0x41,0x00,
0x08,0x00,0x0c,0x00,0x08,0x00,0x04,0x00,0x08,0x00,0x00,0x00,
0x0e,0x00,0x00,0x00,0x04,0x00,0x00,0x00,0x13,0x00,0x00,0x00,
0x6d,0x69,0x6e,0x5f,0x72,0x75,0x6e,0x74,0x69,0x6d,0x65,0x5f,
0x76,0x65,0x72,0x73,0x69,0x6f,0x6e,0x00,0x10,0x00,0x00,0x00,
0xb4,0x04,0x00,0x00,0xac,0x04,0x00,0x00,0x94,0x04,0x00,0x00,
0x74,0x04,0x00,0x00,0x44,0x04,0x00,0x00,0xf4,0x03,0x00,0x00,
0xc4,0x03,0x00,0x00,0xbc,0x00,0x00,0x00,0xb4,0x00,0x00,0x00,
0xac,0x00,0x00,0x00,0xa4,0x00,0x00,0x00,0x9c,0x00,0x00,0x00,
0x94,0x00,0x00,0x00,0x8c,0x00,0x00,0x00,0x6c,0x00,0x00,0x00,
0x04,0x00,0x00,0x00,0xd6,0xfa,0xff,0xff,0x04,0x00,0x00,0x00,
0x58,0x00,0x00,0x00,0x0c,0x00,0x00,0x00,0x08,0x00,0x0e,0x00,
0x08,0x00,0x04,0x00,0x08,0x00,0x00,0x00,0x10,0x00,0x00,0x00,
0x28,0x00,0x00,0x00,0x00,0x00,0x06,0x00,0x08,0x00,0x04,0x00,
0x06,0x00,0x00,0x00,0x04,0x00,0x00,0x00,0x01,0x00,0x00,0x00,
0xeb,0x03,0x00,0x00,0x00,0x00,0x0a,0x00,0x10,0x00,0x0c,0x00,
0x08,0x00,0x04,0x00,0x0a,0x00,0x00,0x00,0x01,0x00,0x00,0x00,
0x02,0x00,0x00,0x00,0x04,0x00,0x00,0x00,0x06,0x00,0x00,0x00,
0x32,0x2e,0x31,0x30,0x2e,0x30,0x00,0x00,0x3a,0xfb,0xff,0xff,
0x04,0x00,0x00,0x00,0x10,0x00,0x00,0x00,0x31,0x2e,0x31,0x34,
0x2e,0x30,0x00,0x00,0x00,0x00,0x00,0x00,0x00,0x00,0x00,0x00,
0xc8,0xf3,0xff,0xff,0xcc,0xf3,0xff,0xff,0xd0,0xf3,0xff,0xff,
0xd4,0xf3,0xff,0xff,0xd8,0xf3,0xff,0xff,0xdc,0xf3,0xff,0xff,
0x6e,0xfb,0xff,0xff,0x04,0x00,0x00,0x00,0xf8,0x02,0x00,0x00,
0xcd,0xeb,0x23,0xdb,0xce,0xed,0xe8,0x07,0xc6,0x25,0x3b,0x21,
0x13,0x13,0xdc,0xca,0xfb,0x9b,0x1c,0x34,0xca,0x33,0xc1,0xd3,
0xd5,0x0c,0x23,0xfc,0x01,0xd1,0xd0,0x36,0xcb,0xc7,0xa1,0xc7,
0xea,0xe6,0xeb,0xf6,0x1f,0x34,0xe8,0x1d,0xe1,0x16,0xfd,0x25,
0xe3,0x33,0x1c,0x04,0x18,0xdf,0xe8,0x21,0xeb,0xc1,0x39,0xd0,
0xd5,0xd9,0xce,0xdf,0xd2,0x26,0x04,0xf8,0xd8,0x33,0xbb,0x1a,
0x3b,0xef,0x2a,0xab,0x26,0xd8,0xf6,0x0b,0xe3,0xe4,0x0e,0x1a,
0xdf,0xd0,0xd3,0xfd,0x29,0x00,0x1a,0x12,0x00,0xbd,0xa7,0xeb,
0x0f,0x21,0xf0,0xe4,0x36,0xec,0xbe,0x11,0x5e,0xd5,0x06,0xd2,
0x25,0x03,0xcd,0xea,0x02,0x2b,0xf3,0xae,0x0e,0xee,0x23,0x19,
0x1c,0x0e,0xfa,0xde,0x21,0xfb,0xdb,0xed,0x41,0xd1,0x45,0x0c,
0xe8,0x10,0xed,0x1c,0xf3,0x03,0x16,0x28,0x1c,0xbb,0x1c,0x31,
0x45,0xce,0x1e,0x31,0xbb,0xf3,0xbf,0xf1,0x0a,0x05,0xe8,0xd9,
0xf4,0x08,0x23,0xfd,0xcd,0x34,0x3e,0x14,0xcb,0xc2,0xd4,0xfe,
0x34,0xfa,0xeb,0x2c,0x3c,0x22,0x12,0xf5,0xe9,0xdb,0x05,0x1d,
0xc5,0xf6,0x25,0x10,0xc5,0xc7,0xef,0xfa,0x1f,0xe1,0x45,0xfc,
0x0d,0x1c,0x1c,0xcf,0x33,0x41,0x2a,0xe7,0xc8,0x05,0xda,0x02,
0x23,0x31,0x0b,0xfe,0x2c,0xcc,0xeb,0x0b,0xf4,0x22,0x00,0xf0,
0x38,0x4f,0xd3,0x40,0x3b,0x02,0x33,0x3f,0xfb,0xc4,0x2b,0x1e,
0xd5,0x43,0xef,0xdc,0x3b,0xd6,0xee,0xec,0x23,0xf7,0xfb,0xbe,
0x0e,0x10,0xf3,0x24,0xda,0xbc,0x2f,0xea,0x14,0x10,0x16,0x3b,
0x02,0xee,0xf6,0x01,0xc8,0x3a,0xed,0xde,0x0e,0x1c,0x24,0xd8,
0xea,0xc8,0xce,0x15,0xc7,0x33,0x35,0xc8,0xc1,0x27,0x4b,0xd6,
0xdc,0x92,0xcb,0xe4,0xef,0xc7,0xd5,0xd8,0x10,0xfa,0xe5,0xf5,
0xc4,0xfa,0x0a,0xed,0xf9,0xba,0x02,0x28,0xee,0x1d,0x0a,0xf5,
0xcb,0xda,0xef,0x25,0xc9,0x0c,0xf3,0x1a,0xa6,0x14,0x26,0x33,
0x35,0xd8,0x25,0xc1,0xb3,0xd4,0xe6,0x90,0xe8,0xbd,0xb4,0xdc,
0x10,0x3d,0x33,0xa6,0xbf,0x20,0xf6,0xf4,0xbb,0x2b,0xb6,0xde,
0xe3,0xd0,0xff,0x19,0xc6,0xf1,0xda,0x32,0xd8,0xc8,0xbc,0xd2,
0xfd,0x3f,0x3f,0xfc,0x33,0x3d,0xc2,0xde,0xc5,0x2c,0x06,0x01,
0xfa,0x07,0xce,0xcb,0xd6,0xef,0xee,0xe2,0x24,0xc5,0x17,0x28,
0xc2,0x00,0xff,0x3c,0xc4,0xff,0x81,0xdf,0x2b,0x3b,0xd9,0xce,
0x28,0x18,0xb6,0x18,0xf9,0xb3,0x41,0x03,0xe6,0xf3,0xd2,0xcb,
0x43,0xa0,0x31,0x26,0xdb,0x44,0x43,0x20,0xd3,0xfa,0x2a,0x1f,
0x20,0xe5,0x42,0xf7,0x44,0x42,0xe3,0xec,0xa1,0x08,0xf2,0xbd,
0xcf,0x0d,0xe4,0xee,0xf3,0x0b,0xf9,0xf3,0x24,0xbd,0xc8,0xfb,
0xed,0x1a,0xe6,0x21,0xe7,0xd8,0x41,0x21,0xe1,0x14,0x18,0xd7,
0x3f,0x21,0x1f,0xee,0x37,0xfe,0x09,0x3b,0xec,0xe0,0x40,0xaa,
0x13,0xf3,0xeb,0x29,0x01,0x12,0x16,0x0c,0x20,0x12,0x25,0x16,
0x2a,0xe9,0x2b,0x1f,0xb2,0x15,0x01,0xff,0xeb,0xf1,0xb4,0x1a,
0xe8,0x03,0x01,0xd8,0xe9,0xfb,0xae,0x15,0xdc,0x31,0x0b,0x24,
0xc8,0xf5,0xf6,0xe5,0xb7,0x4c,0xc6,0x42,0x92,0x30,0x09,0x90,
0xde,0xe1,0xbd,0xa6,0xf8,0x8c,0xc8,0xaf,0xfa,0x07,0x29,0xe4,
0xf3,0x1b,0x29,0xb5,0xc2,0xfb,0x1f,0x1c,0x44,0x00,0x0c,0xdb,
0xfd,0xd4,0x19,0x09,0x1d,0xbb,0xd7,0xd3,0x06,0xd1,0xe9,0x37,
0xf3,0x34,0x32,0x1f,0x02,0x42,0x20,0x22,0xd4,0xd8,0x01,0xb9,
0x26,0xe8,0xc8,0xc0,0x38,0x08,0xe2,0xdc,0xe8,0xbd,0x1d,0x02,
0xd1,0x43,0xd4,0x00,0xf3,0xa1,0xc9,0xfb,0x1f,0xf9,0x12,0xf4,
0xc5,0x27,0xcf,0xde,0x29,0x36,0xd9,0x16,0x01,0xb7,0x31,0xd3,
0xdb,0xe2,0xde,0x1a,0x0c,0xdd,0xe2,0xee,0x15,0x40,0xe9,0xb4,
0xff,0x00,0x09,0x0f,0x98,0x4f,0xef,0x1f,0x0c,0x3f,0xc6,0x39,
0x2c,0xc5,0xeb,0xbb,0x08,0xda,0x10,0xee,0x21,0xd7,0x08,0x01,
0x0f,0xf2,0x03,0xf6,0xef,0x04,0x0a,0x29,0xe7,0x2b,0x01,0x05,
0xe0,0x1f,0x09,0x14,0xe2,0xfd,0x35,0xce,0x2b,0xf7,0x0a,0xef,
0xec,0xcc,0xee,0x0b,0xcd,0x3c,0x49,0xd7,0x28,0xbe,0xcc,0xbf,
0xd1,0x1b,0x00,0xe5,0xeb,0xed,0xec,0x06,0xf9,0x27,0xe4,0x16,
0x25,0x19,0xed,0x0d,0xfb,0xf8,0x39,0xd7,0x0a,0xb5,0xb9,0x2e,
0x24,0xfa,0xc5,0xda,0x19,0x09,0x27,0xfc,0xfc,0x1f,0xd9,0xbd,
0x19,0xdb,0xe7,0x0b,0x18,0xe1,0x24,0x16,0xf2,0x2d,0x14,0xe4,
0xe4,0xff,0x36,0x36,0xc5,0xcc,0x04,0xcd,0x0c,0x12,0xde,0x18,
0xc4,0x0a,0xf2,0xdb,0x3b,0x2b,0x08,0xf8,0x1f,0x0f,0x42,0xbf,
0xbc,0xe7,0x10,0x3b,0xd9,0xd9,0xcd,0xda,0x02,0x28,0xc1,0xc9,
0x2d,0x19,0xaa,0x09,0xd8,0xbb,0xde,0xe3,0xe7,0x2a,0x13,0xd7,
0xba,0xfe,0xd8,0xe7,0x72,0xfe,0xff,0xff,0x04,0x00,0x00,0x00,
0x20,0x00,0x00,0x00,0x00,0x00,0x00,0x00,0x00,0x00,0x00,0x00,
0x00,0x00,0x00,0x00,0x00,0x00,0x00,0x00,0x00,0x00,0x00,0x00,
0x00,0x00,0x00,0x00,0x00,0x00,0x00,0x00,0x00,0x00,0x00,0x00,
0x9e,0xfe,0xff,0xff,0x04,0x00,0x00,0x00,0x40,0x00,0x00,0x00,
0x4f,0x94,0x1a,0xe2,0xd4,0xd3,0x36,0x6a,0xc0,0x8d,0x9c,0x5f,
0xcd,0x09,0x32,0x16,0x91,0x0e,0xaa,0xfc,0xe5,0xc9,0xa0,0xe2,
0x42,0x6d,0x59,0x34,0x78,0xb6,0xab,0x08,0x35,0x70,0x40,0x95,
0x4c,0x0d,0xbd,0x90,0x0c,0x37,0x77,0xb8,0x61,0x29,0x81,0x59,
0xd8,0xe3,0x72,0x60,0x10,0xcf,0x13,0xec,0x88,0x91,0xcf,0xa1,
0x4e,0xff,0xa2,0x0a,0xea,0xfe,0xff,0xff,0x04,0x00,0x00,0x00,
0x20,0x00,0x00,0x00,0xef,0xc9,0xff,0xff,0xbb,0xe7,0xff,0xff,
0x5d,0xea,0xff,0xff,0xd3,0xe6,0xff,0xff,0x94,0x08,0x00,0x00,
0x4f,0xcd,0xff,0xff,0xec,0xec,0xff,0xff,0xa3,0xd1,0xff,0xff,
0x16,0xff,0xff,0xff,0x04,0x00,0x00,0x00,0x10,0x00,0x00,0x00,
0x30,0xaa,0x68,0xd9,0xfd,0xa9,0x04,0xae,0xe8,0xaa,0x7f,0xd9,
0xb6,0xbf,0x04,0x24,0x32,0xff,0xff,0xff,0x04,0x00,0x00,0x00,
0x08,0x00,0x00,0x00,0x38,0x6c,0x00,0x00,0xc8,0x93,0xff,0xff,
0xb8,0xf7,0xff,0xff,0xbc,0xf7,0xff,0xff,0x0f,0x00,0x00,0x00,
0x4d,0x4c,0x49,0x52,0x20,0x43,0x6f,0x6e,0x76,0x65,0x72,0x74,
0x65,0x64,0x2e,0x00,0x01,0x00,0x00,0x00,0x14,0x00,0x00,0x00,
0x00,0x00,0x0e,0x00,0x18,0x00,0x14,0x00,0x10,0x00,0x0c,0x00,
0x08,0x00,0x04,0x00,0x0e,0x00,0x00,0x00,0x14,0x00,0x00,0x00,
0x1c,0x00,0x00,0x00,0x7c,0x01,0x00,0x00,0x80,0x01,0x00,0x00,
0x84,0x01,0x00,0x00,0x04,0x00,0x00,0x00,0x6d,0x61,0x69,0x6e,
0x00,0x00,0x00,0x00,0x06,0x00,0x00,0x00,0x44,0x01,0x00,0x00,
0xf4,0x00,0x00,0x00,0xa8,0x00,0x00,0x00,0x70,0x00,0x00,0x00,
0x34,0x00,0x00,0x00,0x10,0x00,0x00,0x00,0x00,0x00,0x0a,0x00,
0x10,0x00,0x0c,0x00,0x08,0x00,0x04,0x00,0x0a,0x00,0x00,0x00,
0x0c,0x00,0x00,0x00,0x10,0x00,0x00,0x00,0x03,0x00,0x00,0x00,
0x01,0x00,0x00,0x00,0x0c,0x00,0x00,0x00,0x01,0x00,0x00,0x00,
0x0b,0x00,0x00,0x00,0x5a,0xff,0xff,0xff,0x1c,0x00,0x00,0x00,
0x00,0x00,0x00,0x09,0x1c,0x00,0x00,0x00,0x20,0x00,0x00,0x00,
0x02,0x00,0x00,0x00,0x00,0x00,0x06,0x00,0x08,0x00,0x04,0x00,
0x06,0x00,0x00,0x00,0x00,0x00,0x80,0x3f,0x01,0x00,0x00,0x00,
0x0b,0x00,0x00,0x00,0x01,0x00,0x00,0x00,0x0a,0x00,0x00,0x00,
0x92,0xff,0xff,0xff,0x14,0x00,0x00,0x00,0x00,0x00,0x00,0x08,
0x10,0x00,0x00,0x00,0x14,0x00,0x00,0x00,0x01,0x00,0x00,0x00,
0xa8,0xf8,0xff,0xff,0x01,0x00,0x00,0x00,0x0a,0x00,0x00,0x00,
0x03,0x00,0x00,0x00,0x09,0x00,0x00,0x00,0x02,0x00,0x00,0x00,
0x01,0x00,0x00,0x00,0xc6,0xff,0xff,0xff,0x14,0x00,0x00,0x00,
0x00,0x00,0x00,0x08,0x14,0x00,0x00,0x00,0x18,0x00,0x00,0x00,
0x01,0x00,0x00,0x00,0xb6,0xff,0xff,0xff,0x00,0x00,0x00,0x01,
0x01,0x00,0x00,0x00,0x09,0x00,0x00,0x00,0x03,0x00,0x00,0x00,
0x08,0x00,0x00,0x00,0x04,0x00,0x00,0x00,0x03,0x00,0x00,0x00,
0x00,0x00,0x0e,0x00,0x1a,0x00,0x14,0x00,0x10,0x00,0x0c,0x00,
0x0b,0x00,0x04,0x00,0x0e,0x00,0x00,0x00,0x1c,0x00,0x00,0x00,
0x00,0x00,0x00,0x08,0x1c,0x00,0x00,0x00,0x20,0x00,0x00,0x00,
0x01,0x00,0x00,0x00,0x00,0x00,0x06,0x00,0x08,0x00,0x07,0x00,
0x06,0x00,0x00,0x00,0x00,0x00,0x00,0x01,0x01,0x00,0x00,0x00,
0x08,0x00,0x00,0x00,0x03,0x00,0x00,0x00,0x07,0x00,0x00,0x00,
0x06,0x00,0x00,0x00,0x05,0x00,0x00,0x00,0x00,0x00,0x0a,0x00,
0x0c,0x00,0x00,0x00,0x08,0x00,0x04,0x00,0x0a,0x00,0x00,0x00,
0x08,0x00,0x00,0x00,0x0c,0x00,0x00,0x00,0x01,0x00,0x00,0x00,
0x07,0x00,0x00,0x00,0x01,0x00,0x00,0x00,0x00,0x00,0x00,0x00,
0x01,0x00,0x00,0x00,0x0c,0x00,0x00,0x00,0x01,0x00,0x00,0x00,
0x00,0x00,0x00,0x00,0x0d,0x00,0x00,0x00,0x50,0x06,0x00,0x00,
0xb4,0x05,0x00,0x00,0x2c,0x05,0x00,0x00,0xb0,0x04,0x00,0x00,
0x44,0x04,0x00,0x00,0xd0,0x03,0x00,0x00,0x64,0x03,0x00,0x00,
0xf0,0x02,0x00,0x00,0x2c,0x02,0x00,0x00,0x78,0x01,0x00,0x00,
0xdc,0x00,0x00,0x00,0x60,0x00,0x00,0x00,0x04,0x00,0x00,0x00,
0xfa,0xf9,0xff,0xff,0x00,0x00,0x00,0x01,0x14,0x00,0x00,0x00,
0x1c,0x00,0x00,0x00,0x1c,0x00,0x00,0x00,0x0d,0x00,0x00,0x00,
0x34,0x00,0x00,0x00,0x02,0x00,0x00,0x00,0xff,0xff,0xff,0xff,
0x02,0x00,0x00,0x00,0xe4,0xf9,0xff,0xff,0x19,0x00,0x00,0x00,
0x53,0x74,0x61,0x74,0x65,0x66,0x75,0x6c,0x50,0x61,0x72,0x74,
0x69,0x74,0x69,0x6f,0x6e,0x65,0x64,0x43,0x61,0x6c,0x6c,0x3a,
0x30,0x00,0x00,0x00,0x02,0x00,0x00,0x00,0x01,0x00,0x00,0x00,
0x02,0x00,0x00,0x00,0x96,0xfd,0xff,0xff,0x00,0x00,0x00,0x01,
0x18,0x00,0x00,0x00,0x20,0x00,0x00,0x00,0x3c,0x00,0x00,0x00,
0x0c,0x00,0x00,0x00,0x00,0x00,0x00,0x09,0x50,0x00,0x00,0x00,
0x02,0x00,0x00,0x00,0xff,0xff,0xff,0xff,0x02,0x00,0x00,0x00,
0xe4,0xfa,0xff,0xff,0x08,0x00,0x00,0x00,0x10,0x00,0x00,0x00,
0x01,0x00,0x00,0x00,0x80,0xff,0xff,0xff,0xff,0xff,0xff,0xff,
0x01,0x00,0x00,0x00,0x00,0x00,0x80,0x3b,0x1a,0x00,0x00,0x00,
0x53,0x74,0x61,0x74,0x65,0x66,0x75,0x6c,0x50,0x61,0x72,0x74,
0x69,0x74,0x69,0x6f,0x6e,0x65,0x64,0x43,0x61,0x6c,0x6c,0x3a,
0x30,0x31,0x00,0x00,0x02,0x00,0x00,0x00,0x01,0x00,0x00,0x00,
0x02,0x00,0x00,0x00,0x0e,0xfe,0xff,0xff,0x00,0x00,0x00,0x01,
0x18,0x00,0x00,0x00,0x20,0x00,0x00,0x00,0x40,0x00,0x00,0x00,
0x0b,0x00,0x00,0x00,0x00,0x00,0x00,0x09,0x70,0x00,0x00,0x00,
0x02,0x00,0x00,0x00,0xff,0xff,0xff,0xff,0x02,0x00,0x00,0x00,
0x5c,0xfb,0xff,0xff,0x08,0x00,0x00,0x00,0x14,0x00,0x00,0x00,
0x01,0x00,0x00,0x00,0x32,0x00,0x00,0x00,0x00,0x00,0x00,0x00,
0x00,0x00,0x00,0x00,0x01,0x00,0x00,0x00,0x91,0x74,0xec,0x3b,
0x34,0x00,0x00,0x00,0x73,0x65,0x71,0x75,0x65,0x6e,0x74,0x69,
0x61,0x6c,0x2f,0x64,0x65,0x6e,0x73,0x65,0x5f,0x32,0x2f,0x4d,
0x61,0x74,0x4d,0x75,0x6c,0x3b,0x73,0x65,0x71,0x75,0x65,0x6e,
0x74,0x69,0x61,0x6c,0x2f,0x64,0x65,0x6e,0x73,0x65,0x5f,0x32,
0x2f,0x42,0x69,0x61,0x73,0x41,0x64,0x64,0x00,0x00,0x00,0x00,
0x02,0x00,0x00,0x00,0x01,0x00,0x00,0x00,0x02,0x00,0x00,0x00,
0xa6,0xfe,0xff,0xff,0x00,0x00,0x00,0x01,0x18,0x00,0x00,0x00,
0x20,0x00,0x00,0x00,0x40,0x00,0x00,0x00,0x0a,0x00,0x00,0x00,
0x00,0x00,0x00,0x09,0x88,0x00,0x00,0x00,0x02,0x00,0x00,0x00,
0xff,0xff,0xff,0xff,0x08,0x00,0x00,0x00,0xf4,0xfb,0xff,0xff,
0x08,0x00,0x00,0x00,0x14,0x00,0x00,0x00,0x01,0x00,0x00,0x00,
0x80,0xff,0xff,0xff,0xff,0xff,0xff,0xff,0x00,0x00,0x00,0x00,
0x01,0x00,0x00,0x00,0xd0,0x31,0x71,0x3b,0x4c,0x00,0x00,0x00,
0x73,0x65,0x71,0x75,0x65,0x6e,0x74,0x69,0x61,0x6c,0x2f,0x64,
0x65,0x6e,0x73,0x65,0x5f,0x31,0x2f,0x4d,0x61,0x74,0x4d,0x75,
0x6c,0x3b,0x73,0x65,0x71,0x75,0x65,0x6e,0x74,0x69,0x61,0x6c,
0x2f,0x64,0x65,0x6e,0x73,0x65,0x5f,0x31,0x2f,0x52,0x65,0x6c,
0x75,0x3b,0x73,0x65,0x71,0x75,0x65,0x6e,0x74,0x69,0x61,0x6c,
0x2f,0x64,0x65,0x6e,0x73,0x65,0x5f,0x31,0x2f,0x42,0x69,0x61,
0x73,0x41,0x64,0x64,0x00,0x00,0x00,0x00,0x02,0x00,0x00,0x00,
0x01,0x00,0x00,0x00,0x08,0x00,0x00,0x00,0x56,0xff,0xff,0xff,
0x00,0x00,0x00,0x01,0x18,0x00,0x00,0x00,0x20,0x00,0x00,0x00,
0x40,0x00,0x00,0x00,0x09,0x00,0x00,0x00,0x00,0x00,0x00,0x09,
0x80,0x00,0x00,0x00,0x02,0x00,0x00,0x00,0xff,0xff,0xff,0xff,
0x08,0x00,0x00,0x00,0xa4,0xfc,0xff,0xff,0x08,0x00,0x00,0x00,
0x14,0x00,0x00,0x00,0x01,0x00,0x00,0x00,0x80,0xff,0xff,0xff,
0xff,0xff,0xff,0xff,0x00,0x00,0x00,0x00,0x01,0x00,0x00,0x00,
0x5e,0x82,0xb1,0x3b,0x46,0x00,0x00,0x00,0x73,0x65,0x71,0x75,
0x65,0x6e,0x74,0x69,0x61,0x6c,0x2f,0x64,0x65,0x6e,0x73,0x65,
0x2f,0x4d,0x61,0x74,0x4d,0x75,0x6c,0x3b,0x73,0x65,0x71,0x75,
0x65,0x6e,0x74,0x69,0x61,0x6c,0x2f,0x64,0x65,0x6e,0x73,0x65,
0x2f,0x52,0x65,0x6c,0x75,0x3b,0x73,0x65,0x71,0x75,0x65,0x6e,
0x74,0x69,0x61,0x6c,0x2f,0x64,0x65,0x6e,0x73,0x65,0x2f,0x42,
0x69,0x61,0x73,0x41,0x64,0x64,0x00,0x00,0x02,0x00,0x00,0x00,
0x01,0x00,0x00,0x00,0x08,0x00,0x00,0x00,0x00,0x00,0x16,0x00,
0x20,0x00,0x1c,0x00,0x1b,0x00,0x14,0x00,0x10,0x00,0x0c,0x00,
0x00,0x00,0x00,0x00,0x08,0x00,0x07,0x00,0x16,0x00,0x00,0x00,
0x00,0x00,0x00,0x01,0x18,0x00,0x00,0x00,0x20,0x00,0x00,0x00,
0x40,0x00,0x00,0x00,0x08,0x00,0x00,0x00,0x00,0x00,0x00,0x09,
0x48,0x00,0x00,0x00,0x02,0x00,0x00,0x00,0xff,0xff,0xff,0xff,
0x5f,0x00,0x00,0x00,0x64,0xfd,0xff,0xff,0x08,0x00,0x00,0x00,
0x14,0x00,0x00,0x00,0x01,0x00,0x00,0x00,0x80,0xff,0xff,0xff,
0xff,0xff,0xff,0xff,0x00,0x00,0x00,0x00,0x01,0x00,0x00,0x00,
0x75,0x75,0x3f,0x43,0x0c,0x00,0x00,0x00,0x74,0x66,0x6c,0x2e,
0x71,0x75,0x61,0x6e,0x74,0x69,0x7a,0x65,0x00,0x00,0x00,0x00,
0x02,0x00,0x00,0x00,0x01,0x00,0x00,0x00,0x5f,0x00,0x00,0x00,
0xda,0xfd,0xff,0xff,0x00,0x00,0x00,0x01,0x14,0x00,0x00,0x00,
0x34,0x00,0x00,0x00,0x07,0x00,0x00,0x00,0x00,0x00,0x00,0x09,
0x44,0x00,0x00,0x00,0xc4,0xfd,0xff,0xff,0x08,0x00,0x00,0x00,
0x14,0x00,0x00,0x00,0x01,0x00,0x00,0x00,0x00,0x00,0x00,0x00,
0x00,0x00,0x00,0x00,0x00,0x00,0x00,0x00,0x01,0x00,0x00,0x00,
0xea,0x7f,0x64,0x3b,0x17,0x00,0x00,0x00,0x73,0x65,0x71,0x75,
0x65,0x6e,0x74,0x69,0x61,0x6c,0x2f,0x64,0x65,0x6e,0x73,0x65,
0x2f,0x4d,0x61,0x74,0x4d,0x75,0x6c,0x00,0x02,0x00,0x00,0x00,
0x08,0x00,0x00,0x00,0x5f,0x00,0x00,0x00,0x42,0xfe,0xff,0xff,
0x00,0x00,0x00,0x01,0x14,0x00,0x00,0x00,0x30,0x00,0x00,0x00,
0x06,0x00,0x00,0x00,0x00,0x00,0x00,0x02,0x50,0x00,0x00,0x00,
0x2c,0xfe,0xff,0xff,0x08,0x00,0x00,0x00,0x10,0x00,0x00,0x00,
0x01,0x00,0x00,0x00,0x00,0x00,0x00,0x00,0x00,0x00,0x00,0x00,
0x01,0x00,0x00,0x00,0x46,0xe4,0x2a,0x3f,0x27,0x00,0x00,0x00,
0x73,0x65,0x71,0x75,0x65,0x6e,0x74,0x69,0x61,0x6c,0x2f,0x64,
0x65,0x6e,0x73,0x65,0x2f,0x42,0x69,0x61,0x73,0x41,0x64,0x64,
0x2f,0x52,0x65,0x61,0x64,0x56,0x61,0x72,0x69,0x61,0x62,0x6c,
0x65,0x4f,0x70,0x00,0x01,0x00,0x00,0x00,0x08,0x00,0x00,0x00,
0xb2,0xfe,0xff,0xff,0x00,0x00,0x00,0x01,0x14,0x00,0x00,0x00,
0x30,0x00,0x00,0x00,0x05,0x00,0x00,0x00,0x00,0x00,0x00,0x09,
0x44,0x00,0x00,0x00,0x9c,0xfe,0xff,0xff,0x08,0x00,0x00,0x00,
0x10,0x00,0x00,0x00,0x01,0x00,0x00,0x00,0x00,0x00,0x00,0x00,
0x00,0x00,0x00,0x00,0x01,0x00,0x00,0x00,0x04,0x21,0xa3,0x3b,
0x19,0x00,0x00,0x00,0x73,0x65,0x71,0x75,0x65,0x6e,0x74,0x69,
0x61,0x6c,0x2f,0x64,0x65,0x6e,0x73,0x65,0x5f,0x31,0x2f,0x4d,
0x61,0x74,0x4d,0x75,0x6c,0x00,0x00,0x00,0x02,0x00,0x00,0x00,
0x08,0x00,0x00,0x00,0x08,0x00,0x00,0x00,0x1a,0xff,0xff,0xff,
0x00,0x00,0x00,0x01,0x14,0x00,0x00,0x00,0x34,0x00,0x00,0x00,
0x04,0x00,0x00,0x00,0x00,0x00,0x00,0x02,0x58,0x00,0x00,0x00,
0x04,0xff,0xff,0xff,0x08,0x00,0x00,0x00,0x14,0x00,0x00,0x00,
0x01,0x00,0x00,0x00,0x00,0x00,0x00,0x00,0x00,0x00,0x00,0x00,
0x00,0x00,0x00,0x00,0x01,0x00,0x00,0x00,0xcd,0x39,0xe2,0x37,
0x29,0x00,0x00,0x00,0x73,0x65,0x71,0x75,0x65,0x6e,0x74,0x69,
0x61,0x6c,0x2f,0x64,0x65,0x6e,0x73,0x65,0x5f,0x31,0x2f,0x42,
0x69,0x61,0x73,0x41,0x64,0x64,0x2f,0x52,0x65,0x61,0x64,0x56,
0x61,0x72,0x69,0x61,0x62,0x6c,0x65,0x4f,0x70,0x00,0x00,0x00,
0x01,0x00,0x00,0x00,0x08,0x00,0x00,0x00,0x92,0xff,0xff,0xff,
0x00,0x00,0x00,0x01,0x14,0x00,0x00,0x00,0x34,0x00,0x00,0x00,
0x03,0x00,0x00,0x00,0x00,0x00,0x00,0x09,0x48,0x00,0x00,0x00,
0x7c,0xff,0xff,0xff,0x08,0x00,0x00,0x00,0x14,0x00,0x00,0x00,
0x01,0x00,0x00,0x00,0x00,0x00,0x00,0x00,0x00,0x00,0x00,0x00,
0x00,0x00,0x00,0x00,0x01,0x00,0x00,0x00,0x0e,0x6e,0xb3,0x3b,
0x19,0x00,0x00,0x00,0x73,0x65,0x71,0x75,0x65,0x6e,0x74,0x69,
0x61,0x6c,0x2f,0x64,0x65,0x6e,0x73,0x65,0x5f,0x32,0x2f,0x4d,
0x61,0x74,0x4d,0x75,0x6c,0x00,0x00,0x00,0x02,0x00,0x00,0x00,
0x02,0x00,0x00,0x00,0x08,0x00,0x00,0x00,0x00,0x00,0x16,0x00,
0x1c,0x00,0x18,0x00,0x17,0x00,0x10,0x00,0x0c,0x00,0x08,0x00,
0x00,0x00,0x00,0x00,0x00,0x00,0x07,0x00,0x16,0x00,0x00,0x00,
0x00,0x00,0x00,0x01,0x20,0x00,0x00,0x00,0x3c,0x00,0x00,0x00,
0x02,0x00,0x00,0x00,0x00,0x00,0x00,0x02,0x60,0x00,0x00,0x00,
0x0c,0x00,0x0c,0x00,0x00,0x00,0x00,0x00,0x08,0x00,0x04,0x00,
0x0c,0x00,0x00,0x00,0x08,0x00,0x00,0x00,0x10,0x00,0x00,0x00,
0x01,0x00,0x00,0x00,0x00,0x00,0x00,0x00,0x00,0x00,0x00,0x00,
0x01,0x00,0x00,0x00,0x85,0x0d,0xa9,0x37,0x29,0x00,0x00,0x00,
0x73,0x65,0x71,0x75,0x65,0x6e,0x74,0x69,0x61,0x6c,0x2f,0x64,
0x65,0x6e,0x73,0x65,0x5f,0x32,0x2f,0x42,0x69,0x61,0x73,0x41,
0x64,0x64,0x2f,0x52,0x65,0x61,0x64,0x56,0x61,0x72,0x69,0x61,
0x62,0x6c,0x65,0x4f,0x70,0x00,0x00,0x00,0x01,0x00,0x00,0x00,
0x02,0x00,0x00,0x00,0x00,0x00,0x16,0x00,0x1c,0x00,0x18,0x00,
0x00,0x00,0x14,0x00,0x10,0x00,0x0c,0x00,0x00,0x00,0x00,0x00,
0x08,0x00,0x07,0x00,0x16,0x00,0x00,0x00,0x00,0x00,0x00,0x01,
0x14,0x00,0x00,0x00,0x20,0x00,0x00,0x00,0x20,0x00,0x00,0x00,
0x01,0x00,0x00,0x00,0x3c,0x00,0x00,0x00,0x02,0x00,0x00,0x00,
0xff,0xff,0xff,0xff,0x5f,0x00,0x00,0x00,0x04,0x00,0x04,0x00,
0x04,0x00,0x00,0x00,0x1d,0x00,0x00,0x00,0x73,0x65,0x72,0x76,
0x69,0x6e,0x67,0x5f,0x64,0x65,0x66,0x61,0x75,0x6c,0x74,0x5f,
0x64,0x65,0x6e,0x73,0x65,0x5f,0x69,0x6e,0x70,0x75,0x74,0x3a,
0x30,0x00,0x00,0x00,0x02,0x00,0x00,0x00,0x01,0x00,0x00,0x00,
0x5f,0x00,0x00,0x00,0x04,0x00,0x00,0x00,0x58,0x00,0x00,0x00,
0x38,0x00,0x00,0x00,0x18,0x00,0x00,0x00,0x04,0x00,0x00,0x00,
0xe0,0xff,0xff,0xff,0x06,0x00,0x00,0x00,0x02,0x00,0x00,0x00,
0x00,0x00,0x00,0x06,0xf0,0xff,0xff,0xff,0x19,0x00,0x00,0x00,
0x02,0x00,0x00,0x00,0x00,0x00,0x00,0x19,0x0c,0x00,0x10,0x00,
0x0f,0x00,0x00,0x00,0x08,0x00,0x04,0x00,0x0c,0x00,0x00,0x00,
0x09,0x00,0x00,0x00,0x04,0x00,0x00,0x00,0x00,0x00,0x00,0x09,
0x0c,0x00,0x0c,0x00,0x0b,0x00,0x00,0x00,0x00,0x00,0x04,0x00,
0x0c,0x00,0x00,0x00,0x72,0x00,0x00,0x00,0x00,0x00,0x00,0x72

};

#endif //SALARY_MODEL_ESP32_H